00c1
fd37
ffae
ff2f
fa2c
fe95
0162
037a
fdfb
fd96
ff3a
fe0c
0537
fe60
fe41
034a
02a0
feb9
0228
00d2
0480
0494
fc7b
fe50
0056
01a8
0110
fc8b
ff78
0010
03ac
ffe6
fde9
ff7d
053b
ff1a
007e
0239
042a
fd07
0246
feca
0089
0156
0074
012f
ffa4
fffd
01f0
fc4b
01b1
0382
fd32
fc50
01ba
028b
fd5d
0443
00a7
0051
01f1
01e8
fe95
00c1
fdb7
ff19
fe7f
044c
00a5
02dd
0217
fc87
00ad
fd4f
043c
017e
fce8
fcd0
ff8d
ffd9
ff5e
fd93
ffe8
ff39
ff25
0361
02ac
002e
fdb6
fcf3
0175
02de
fd7c
0050
01ed
ff99
01f5
00b6
fe6e
feda
008f
0015
ff04
022b
fc13
fdec
00b0
fab7
0520
fbfc
fcdc
0117
02ba
fff2
fed7
0415
03aa
0081
ffcf
ff45
0382
02a6
0003
0479
ffbd
021b
0068
ffcb
fdaa
017a
0216
00f8
00a9
043f
fdeb
0300
02b1
fdf8
fe81
fe8b
01c8
fec0
00e6
ff7d
fe56
fe1a
ffe1
fc9f
03e7
0231
0267
014f
0193
048f
ffa0
ff32
fec6
00ca
ff56
02ef
0622
030b
fda0
024a
ff9e
ffb2
fe4d
fe74
feaa
fb18
0063
fe3e
ff07
021d
fc76
fdc5
013b
ffbc
fe0e
00a8
01f1
015e
04b5
ffa8
ff8c
016c
feab
02a0
0266
fe1e
0344
fde3
0499
00bc
fecb
ff23
fecf
fe39
fddc
fd5d
fc5a
0228
ff78
fe46
0270
039a
ffd3
007e
060d
fe98
ff7c
0159
fedc
020e
ffe8
00ad
0129
ffd1
fd3d
014d
02e1
0382
01e0
0070
fb4b
0183
ff08
006d
ff09
fea0
fe91
0088
00fb
01c6
facb
0039
0103
01a3
fc00
0278
fda6
019c
03f3
00c3
0113
01b9
ff69
ff3e
ff60
015a
03ad
f7c2
ff2b
01c4
0053
fda2
fe08
ffb5
001d
015a
0154
fe26
fe65
ff03
fe1b
02f3
ff32
0371
fb9f
0019
fd93
01e9
0102
0100
fcd8
03b8
02cb
fb4c
feb1
fed0
fee3
fddf
fd6a
feec
0109
fda1
0102
fe6b
ffe2
fbc0
0242
fdfa
02fc
fe0a
fea9
00a7
0107
fcfa
00cb
0066
02ff
00e0
000f
013b
fb21
015d
00f2
035f
00b1
00dd
fab0
0267
fe59
ffb0
0117
ff04
01c6
fdc9
0095
fc20
018c
ffad
fd23
0041
00c5
0567
0306
ff14
fde8
fdd3
01a1
fd84
0242
0411
fe89
fe9c
02ed
fef9
fef7
0456
fe94
025b
fc5a
fc10
fe50
fe5d
feaf
0019
02fd
ff52
03a7
02f1
fd64
01ed
015c
ffa7
0040
fb2b
feac
fe96
fe56
ffa7
027b
00f3
fe7d
feef
023a
03b7
fee2
020f
ff14
026b
0097
00e8
038c
ffb2
ffac
03d1
fd31
0620
0116
fbde
0296
0270
0202
fedc
fde6
ff6d
000a
ff6d
0001
00ce
fcdf
010e
016c
002c
ff24
02da
fc24
01ad
ffdd
0003
fef5
fded
fded
00e3
017d
01e8
ff75
0101
ff1f
01fd
ffa6
031b
fb52
fb84
fb49
fedd
fe56
0214
014c
ff76
ff72
03e9
013e
ff48
01e3
fd99
01f8
fd24
ff70
0303
fdd4
fdf0
ff2b
fed2
01aa
004f
00e6
fe62
ff97
0304
fde1
feaa
faf8
0021
05c9
ff7a
fcd6
0048
fe3f
fe94
020b
0395
0194
ff7e
feec
ff89
0123
0265
fd56
01b6
001d
feaa
ff91
fef6
000c
fd93
01b7
006c
03f6
fedf
030c
fe1a
003a
fefe
0336
008b
035f
ff3d
0013
003c
0233
014d
fed8
fd33
ff90
007b
fe67
0080
02de
01d2
014b
0502
fda6
ff71
febe
fff8
01c6
ffd3
fe6c
019e
fe17
ffbd
ff74
0029
0201
0444
ffc6
ffd9
fb48
fc30
fcbe
fe5e
ffc3
00ac
fc70
fe9e
ff75
fe67
fcf2
fde7
fccc
fd9e
0120
008a
fbdc
0465
fd80
0137
ff12
fe79
ffb3
fecd
fbac
ff7e
fc4c
01de
fe24
009d
fd6c
05e9
fed3
fd5f
fef1
fd7d
fce0
fe26
0233
fe5f
fcea
ff4a
0053
0244
ffa1
0343
fb28
0062
fa42
ff3e
04b9
00dc
01ae
fe92
0185
fed1
fe55
0271
fd5f
0257
0012
fe28
010f
0176
ff36
fd9c
02ff
005d
fe67
fe17
fa21
02f7
fe89
ffd6
fceb
fffa
015f
04a9
fc2b
0085
01ff
00ad
fdcd
0247
fd9e
00d1
ff06
006d
fe71
fea1
04fb
0162
ff6c
fe47
0031
009c
fe81
ff25
ff02
ff23
fd87
ff72
fd33
006b
ff02
ff57
004a
fc00
fe4e
fd00
01ca
01c3
ff5a
fff0
febe
00f8
fc62
0175
fe2e
005c
fe87
ff84
009c
fdc8
fc4e
003b
fc3d
ffa3
fca4
002b
fd0c
ffad
fa6c
033e
046f
01d9
fb6c
0650
00b3
ff26
0263
0261
fda2
fe83
f899
01be
02e6
fcb4
fc47
ff35
03ea
0403
051c
ffaa
0208
ffee
fe23
fddf
021f
0124
fe89
003a
fdac
0068
ff6e
00a6
0345
fe9c
00d0
0383
ff82
ffe5
fe05
febb
fdb7
0036
fd2a
0742
feb4
039c
ff39
03b5
ffc8
ffee
feb4
fe9b
fea9
ff79
fb2a
0531
ffa3
ffc0
ffc4
fe9a
0056
ff7e
ff9d
ff9a
ff44
00c8
01f9
04ae
05ab
02a0
ffed
ff38
03f2
01a9
0327
fc5c
ff17
fd8c
0272
0332
030f
0162
fec0
031e
0563
fecc
fee1
0006
fbff
0335
feaa
01c4
016d
febe
ffc8
009f
0093
0141
ff88
fda6
fc08
fe4c
00a1
ff9f
0106
fdc5
fbf4
fbe1
0497
042d
014a
029a
029b
0306
fe9f
0145
fecf
04fa
ff5e
fe4b
00d2
02e3
fd60
ff78
011d
fd43
ff93
03f5
ffef
003d
fe87
ff75
ff0f
fd76
fd17
fe3a
041a
03ab
0049
fc07
ff9d
00a7
0157
0074
00dd
0108
fe30
013d
fc88
00b7
0042
02cf
0108
01db
fda9
007d
00bd
fc71
ff50
031d
ff90
fe75
0481
00e1
02e0
0029
02c8
0045
fdd3
0226
fc03
008a
01e0
fbf4
017a
0500
ff49
0153
0151
fff1
ffb4
fe68
01b9
fc8b
fb7c
005a
ff31
0298
02a8
05a6
ff06
00b2
0008
063e
fe75
fd73
ff1e
01df
042f
0150
ff72
0125
fcf9
008d
ffcd
0035
fe45
fe92
0394
0114
0075
0235
fec5
fd53
fe26
fab3
ffa3
ffaf
02b2
00c5
ffdf
fa70
ffcd
0151
fd8a
027b
fc5e
ff6f
0352
037b
fb71
fdee
02df
06d3
fd7f
0028
03c8
fd36
fc0b
004b
0481
fffa
ff2c
0167
fd0e
0001
fc36
0057
0046
fcc0
fd11
00a5
fd6f
00c0
041e
01de
fe6f
0201
0115
0122
fe75
ffee
fe88
054e
005f
0059
fe6e
0164
006e
ff44
019f
00ee
ff22
05d3
0003
ff2e
fe0f
fdb6
fe18
ffa6
fedc
004b
02b5
ffb4
01eb
02c7
fd4b
06db
02b6
fee6
0075
fcf9
0255
027e
0127
029c
00e6
ffbc
ff12
fe50
fd85
0266
fdc6
0172
fc5d
fce2
0277
fe1e
0001
ff21
f83f
0017
01b4
feb7
018f
0366
fd4b
0005
0188
0180
0196
0090
fd7c
fe56
02fa
fd6d
00c1
042b
008a
02a1
fcff
00f0
fd71
fe96
01b5
ff68
03ac
0153
01fa
0352
016e
0006
ff1f
0332
003f
019a
ff39
fcad
ff4d
00e2
fd2b
014f
0016
fc57
fe6a
0013
fcfa
ff19
0177
0278
0332
0211
0226
0517
01e3
fa16
062b
fedb
fc19
fc68
002e
0239
0184
ffbe
fe8f
006b
0048
04db
055e
01e7
015f
feb9
fc9d
fdee
0244
0128
0230
0169
013d
ff8b
fe75
ffa5
ff1b
fe57
0186
0275
fd6e
0237
0266
0307
007f
002e
fcdc
0279
ffd3
0270
0307
03fb
fd4c
ff86
ff1b
00f9
fb43
fc8d
0289
038d
ffb6
fee0
fdeb
fcbf
003a
ff8f
02b1
01c7
ff46
07d2
fdcc
021e
fe8e
0213
0080
fec6
0142
093b
ffaf
0390
003a
01da
059f
ffcc
020e
fec2
018a
0131
fa62
ff66
feb6
0043
fd9b
014e
ff4f
0295
0251
005a
02b4
0216
ffce
0311
00b7
03fc
f9f2
ff8e
fe6e
ff24
fa9c
001a
ffc9
fe4c
00cd
01e7
ffb8
fdac
009f
fd98
0025
0568
014c
0763
fd9e
fd79
010b
059f
fe15
0060
008d
0243
ffda
05a7
ff38
fdd8
fce3
018e
ffea
ff19
ffda
05be
041c
fe04
0225
04d1
fe7b
03a6
ffe5
01d7
0151
0352
00a8
fe3c
feb3
fc65
016f
fecf
001e
03c5
0077
02d2
04ff
0047
fdcc
0058
0086
00b4
0053
fffe
fb48
ff65
ff41
fe5c
ff7f
fea0
0151
ff96
01b3
fe48
0103
fdd3
003e
0248
0083
fecd
02a7
009c
f9e0
ff65
00e9
0101
046b
fe3e
021d
0016
036b
0085
0002
028b
fdc2
0282
f92a
fc86
0178
02dd
fdeb
febc
ff26
fe73
ff39
029e
fde5
0225
0108
024f
04f3
0136
fea0
00eb
01a4
ff1d
0073
044e
f9e5
0400
fe7e
fc59
0401
fe45
fd55
fe8c
fde0
0354
ff37
016d
ffe5
feac
fc35
fdf8
04a3
000a
0161
0255
012a
03e5
018d
ff67
026e
01df
02d6
ff18
05b6
023f
00ea
0296
fe61
01c5
0168
0218
03b4
02af
ffbe
fd72
02e4
fe57
00fb
00fb
0104
02d1
03f9
fc07
ffca
0244
fec5
fbc7
01ba
004c
ffad
01d7
0350
0335
025c
0301
fd86
0005
0437
003e
016f
ffce
01a0
ff50
fec1
ffa5
01e9
0086
fdc7
fd8a
fe09
025b
0392
fca1
fe80
0112
032c
03b4
ff91
037d
fd06
019b
fce7
fe2f
022a
031a
006a
0336
ff7c
01b9
0079
000b
008c
01dc
fe4c
0201
0089
fe28
0481
fedc
fc2b
0034
015d
ffc4
fe34
00b2
ffa4
ff6a
ffda
ffba
02f8
fc48
0036
0176
00ef
ff31
0279
0200
fd41
0071
0441
01e9
0260
0150
ffb5
fd0d
00c6
fd33
fb5f
ff0b
ff24
008d
ffbe
fed5
ffd3
0190
fc79
fddd
fe1b
0185
fea6
00a8
015d
fb86
0544
008b
fc7b
010f
fd54
03e5
028b
025f
fcdd
fd3c
fd90
ffca
00f4
044e
fe43
05ef
fda6
0148
02db
ff7c
00d2
02a1
020e
ffab
ff76
038d
fd59
fec5
ffc4
008d
0352
ffc7
ff7b
fbe8
ffe8
ff48
fe6e
036a
faa6
036e
fd0d
027b
00b8
01ea
fd70
fe7a
012b
01d5
0148
fff8
0129
fe06
fb24
fe75
f9ae
0379
fff5
024b
ff6d
0074
fde9
fc59
0240
024c
fd70
0026
0386
014a
0212
fd96
022e
ff2d
01d7
0693
fb81
fe94
fd34
ffaa
fe09
fd8b
004f
00e6
02bc
ffd9
febb
fed9
0070
027d
0131
0333
fecb
03d9
0027
0175
0054
00a5
0411
0137
ff35
fe2a
0143
fdac
fdb6
03d1
0297
02c7
ff48
ff34
01c0
fc03
007a
fde4
021c
fec3
00d9
0350
fc25
014f
fb31
f918
03bf
02bf
fd07
00d6
023b
0182
0103
0077
0202
fedd
fe57
ffcf
0105
fe93
0008
fe96
fd10
006c
03bc
ffc8
0263
01e6
0053
0250
fd8e
0106
ffa0
0172
00c9
0166
fd9d
0123
fdc5
fd76
fe31
fe26
0082
0430
00b7
ff4d
023b
fd4a
0144
00da
fb4f
0696
01dc
fe60
03d3
01a8
feeb
ffa9
fce8
065d
ff07
fe2d
0135
ff67
ff32
fff5
01b6
0108
023d
03c4
0193
00d1
0437
045a
0077
0326
fe2b
fed9
00c9
0356
fe3f
033a
00f4
0116
0086
01f7
fdc3
0163
fe54
01ec
ff8a
0118
03f2
033d
026b
00f4
fdff
0294
ffdd
fef8
fd06
fd8d
fde2
00e1
007d
fd4c
fd2f
fa3e
0146
fe28
fe64
faf8
04b6
01e3
00a7
024a
fe8f
fe60
f953
002b
0150
fffd
fe2a
fffd
fa0e
0170
fee7
016a
ff5f
00ef
feb9
0139
0128
0277
fc1b
0669
fe21
0394
fd66
0291
ff01
04b9
fe17
0238
fff2
01bb
ff7a
fe90
fbd0
0230
0206
ff0b
0148
fd7e
fd25
022b
fb6e
004a
016a
02bc
fef5
02d6
fce8
01d2
0292
04a8
0182
fe77
041f
ff59
fe4d
03b4
03d8
fc67
05cc
0058
fe2d
ff06
02a0
0368
04c2
ff1e
fd3f
00ef
feff
ff69
ff5e
0428
00fb
0074
f99c
fe52
0051
01e7
0044
feea
fd40
0025
ffb4
fecf
fe02
fbbd
011d
fdf7
03cb
0093
feca
fd41
fcc3
fb43
0145
03c1
fcf0
feb7
fbad
01f6
026f
fbf2
fdf0
0240
fffe
0465
ff3c
ff0f
00d8
ffd6
ff50
fd79
013b
ff15
0063
ff6c
fc6c
0246
0417
ff64
fce7
0141
fd52
01b2
0252
05c0
01ed
012c
fcef
fe5a
031e
ff79
fc61
0271
00ec
01d1
027e
0031
ffa7
fe6a
ffe9
fbd8
0103
0164
025c
fe93
fe7a
0080
008f
feb5
fb0c
fb87
fc4d
0008
0058
00ac
007e
02a5
ffbb
01af
016d
fff8
ffe5
fe27
0279
fd5c
fde6
064b
fe4e
01cc
fd9e
feb0
0214
ff12
003e
fca6
ff46
fe97
ff54
03d9
fa29
03e9
0039
fe3e
ffe7
00c5
fb85
fce4
0322
00eb
0041
00f2
ffca
004b
ffde
ffe3
0065
fe44
0350
fd94
00c5
f906
02d8
003f
0052
fac8
fd6a
022f
00b1
04e1
fd4e
ff06
00b7
032b
fead
03cd
fba9
fd7d
feef
ff00
ffa9
0002
fe6a
0333
ffa0
ff5a
fe53
fc95
016a
ff85
fec8
038b
0119
fd0b
01fe
011d
0132
005c
fdbc
fff7
029b
ff3f
ffea
feb9
0227
0239
fad6
ff41
ff9e
0002
0082
0049
ff41
040d
fffa
fcff
ff05
fd38
fcb9
ffd0
fa98
ff90
ffb2
01c3
0301
ff75
fde7
01bf
0373
fe00
fe24
ff4b
0177
0059
013f
017b
0279
05af
ff31
0243
ffed
0045
01d7
ff49
fde1
0210
0159
fd80
00c0
fd33
014a
020e
01f7
02ef
febc
05bf
017c
001b
ff79
ff37
f998
ff00
0204
fcc1
ff0e
03af
ff54
fc36
ff70
043d
02e6
feb4
ff89
00b6
ff0f
0088
fff3
ffb2
fe3e
ffe0
027b
fed9
03b2
ff55
0207
0205
0124
0260
fded
02ad
fd91
027f
ff8d
0123
0406
032e
00d4
04cd
ffd8
05a4
058e
fe6e
018e
032f
001a
01c8
08ca
0068
fe5f
0190
fae9
034f
01a8
ffa5
0174
01f8
fc60
015e
ff14
fe89
046b
fea5
fed8
fffc
0176
ff73
0180
fde8
0083
fe18
00f1
fe26
fec1
fe80
034c
fdcc
fe1d
035c
035d
ff22
0313
0406
ffa7
0199
fdaf
008a
fcbe
0016
008e
fffd
fe4b
0158
fde1
0172
ff21
02c1
fe69
fe46
0151
0064
00b7
0540
fcf8
fa72
00e8
feee
0233
03aa
02a7
0051
fed5
fc24
ffce
0114
fe59
001e
0346
ff28
04b7
0244
0181
037f
ffe7
fd96
011d
ffc3
011e
015d
020f
02d3
feaf
fee9
0467
fdff
00e8
fe93
02a2
010d
032f
fccd
008d
0262
0222
05e8
ff7d
fe5a
ff3e
0057
0404
0212
003f
064a
021f
0087
feb1
ff2c
ffee
0446
fdd8
ff33
0117
00a3
fa3a
ff8c
000d
01d3
045f
03ae
fd2b
fee1
ffa8
0179
ff5f
0032
ffd7
007d
0093
fe5c
010b
0102
05dd
ff16
fe09
ffa5
0231
0981
feff
fcb7
02bb
0131
0327
fb09
fc14
feda
ffbd
fd6c
018f
ffdd
fd14
0079
ff51
fcce
ff1b
01bb
fd2a
fb72
fd46
fdc0
01b3
0125
ff7c
fff9
001f
ff07
04b1
fefe
01a5
0116
0109
ffa0
fe7f
fc5a
006a
02a3
fd17
043f
007c
ffbf
ff0d
030b
0206
fe89
009d
0128
ff7c
fb11
fc0f
fe2a
0297
02ce
fd00
ff62
f894
fdb9
fdff
0288
0145
fad6
fbf7
fed7
0157
0105
01dc
0768
fce3
0034
fe85
03d5
fe80
046b
01f2
fc92
fef6
0391
03cf
ffd9
001f
fe45
00f6
00c5
0138
0013
fff9
0046
003d
ff54
fdfc
0032
0303
fc90
0264
011e
feb7
0046
0010
feb2
fd6d
fe3e
028d
fee4
fd7f
ff61
0332
fefd
fb45
fee7
01aa
fff3
ff7a
fe8d
0304
ffd9
fc2f
fc87
fe1b
031b
fe87
ff70
fdeb
fca9
fef8
04e3
0154
fdc6
ff76
02c4
ff11
01ea
0087
01a1
0235
00e5
fd62
feb9
0021
0258
00ba
0184
ff40
fcea
03c1
01e1
00d8
fc8e
027d
fef7
ffb8
0515
fefd
0161
01a7
fe5e
013d
fe5b
00a2
0208
0014
027f
ff05
00fb
00e3
ff16
0525
0118
0560
ffe9
fd64
fe81
0278
00f5
0100
01e2
ff1b
fdf3
0147
ffbc
ffe5
ff4e
0281
fda3
0471
ff51
01f1
fe6f
015b
04bd
00d6
018c
ff00
036d
fcb8
fce7
fdae
0068
feae
0184
fd12
0078
fc77
00d2
030d
00aa
0021
0097
030d
0216
ffa9
fbe7
fff7
fea5
ffd7
02f0
012a
fba1
