fde8
005b
fe0e
0368
fdea
ff89
0151
0251
00b7
fd44
faf0
fd35
01f7
f8a2
00b1
02be
fcbc
fd23
01de
00d7
026d
ff70
0031
0000
01c7
feef
0061
0038
0034
fc4f
0394
fe35
fec2
0072
fedb
030e
fd15
03fd
0200
fe1c
03c7
fc57
021e
0044
0166
00b0
fe19
fcf7
fdf4
fe58
fdf5
0038
fc7e
fc38
0030
fd1f
0111
06df
fdd4
fb91
00e7
ff25
0087
fda6
fe70
fe99
fdcb
0170
0049
0208
0019
fe51
fda2
fd42
ff39
0042
fd8b
ff2f
02ac
03c2
ff5b
0093
ff75
fe9b
0322
fed7
032f
fe86
029a
fc59
0186
03d4
fe61
fdcb
0195
fe78
fdf0
fe23
fe2f
01f2
ff95
0082
000c
fef3
fc83
0370
ff87
0195
001b
fde8
0175
014c
0224
0265
023b
054c
06b8
fe65
0468
0018
fdce
ff04
fb0c
ff46
fd29
0429
0182
00c1
ff9a
fde8
0268
0098
0079
fe57
fceb
0252
0285
fd05
03db
0253
04fb
01c5
feef
ff9d
fdc9
f987
fcab
0588
0375
0139
0452
004c
01b7
01d6
fb05
fd94
000c
fed4
fdd9
fe4f
ffcd
02bf
fffe
00de
01b9
fdec
fe64
00d8
fdaa
fe71
faca
fb7b
0170
fed1
03a0
ff32
ff2a
ff87
fed6
fd1a
0110
ffc5
012d
fe1c
fc78
feee
0287
02c0
0053
fed8
0519
fe23
0186
fcbc
0097
fd04
0119
fc22
00fa
fd8a
ffaa
ffc0
ff30
fe72
01e6
ffd0
fbc3
fe76
043e
0110
021c
0350
fe6d
001e
fe37
005d
00b8
fd1c
01ab
02de
00ee
fe0d
03e6
ff72
fccc
00cd
fd7b
001f
0469
0147
fae2
fcc2
00dc
fff3
fc34
002f
022b
025c
fd11
013c
0038
fe11
ffe7
fe17
0025
0062
fe30
0211
fd17
fff4
0274
fd74
fb8c
fd5c
fcfa
fa57
fa8a
0139
01c3
01a0
ffbf
fcd1
0187
00c8
fddb
fcbe
012f
0781
ff05
fb54
ffb0
fe18
01b6
0127
fc98
0266
ff41
fe7d
034f
ff37
fff6
fc92
ff4a
00d6
036e
fcc7
00c9
fed6
0200
ff3e
fbb7
018d
fe4a
fadb
fe9c
fe9d
ffa9
fe6a
ffd4
0336
ffba
fc84
02cc
002a
f9b0
035c
fff4
01bb
0026
fc08
000b
00e0
ffc4
fbb2
0071
01af
0183
ffee
fe48
fdfe
043b
fc97
0204
fcfb
00aa
0378
fdf0
033f
ffc2
00f0
000c
0003
01f2
0494
005c
fba1
000e
fe53
007c
ff4e
00fa
0478
ff95
fbdb
02ec
ffb2
ff90
ff00
fec9
0041
0236
ffa3
013b
00a4
fe04
fc4a
fdc7
fcc9
03df
003b
012e
0064
040f
fd0a
fff6
01c6
0673
0475
fcae
01f0
fe9c
015a
024c
fd8a
04aa
ff04
ff37
fe02
ff07
01dc
ff7d
fe2e
01c5
0037
0043
ff4e
00fe
002f
fff1
feff
00d6
00f9
ff95
0331
0168
fc56
f816
0433
fe94
0269
ffc2
fe8d
012f
ffc3
ffea
0319
fdf7
ff11
0199
021a
02a9
ffcc
0081
030b
fdff
fbf3
ff2a
fcb3
fd3a
0280
00fe
ff58
fc57
ffa0
009c
00b2
0058
febf
0184
fdb2
ff79
0265
fc47
fe58
01cb
04c9
ff4c
04e5
fff9
fe63
079a
0104
0084
006d
faaa
0031
025a
0079
fb54
ffd1
faa2
0048
0159
0326
0116
ff9e
f90f
02f7
00fe
0163
fd0e
fdf5
0100
00c6
ff6c
ff1f
006e
01f1
01a4
fea7
046b
ff5c
0147
ff83
0209
0088
03ba
ff5b
fe69
fdda
fe00
0261
00c2
02dd
fed8
00f4
01c6
0011
ff48
0297
0423
0526
fd8a
032f
fe34
fdc9
0160
00c7
fc05
fdd7
01bc
00a8
002b
fc8a
013b
fa3e
fece
fd1c
ffc6
0010
fe90
ff8f
01ef
0368
01db
0006
fda9
fd1b
021c
02aa
0035
fcb3
fbf0
0472
0178
02fe
0099
ffd8
ff3a
017d
fc79
0011
ffc2
0126
0044
feec
0061
feb1
fe4c
fdb0
fd6a
01b8
038a
fea9
fd74
ff07
019a
fe64
04e3
01a6
fb49
fbc0
fc0a
024e
0184
0083
fd36
fd34
0038
0168
021a
fe95
012d
fd8f
02a7
0039
03bd
0498
fc25
005d
02da
0085
ffce
fcdc
ffbf
0446
00a9
ff59
0609
018d
fefb
ff7f
ffd9
fdd3
fe4b
ff6f
fef3
03ed
0104
fd4e
003d
fe18
023a
0014
fbc4
fee3
ff0e
fba8
fdfa
0011
0419
00c3
fef0
fe34
0112
023b
fcd5
0334
00a3
0114
fbfe
0027
ff81
ff28
fff6
fe68
00d5
fac1
041d
005e
01e9
0203
fcd5
0007
fb89
ffdd
fda7
0292
00d8
ff9e
fcc4
fb05
fcf9
ff02
fea9
fc8b
01a1
01e8
fe3b
02b9
ffe5
ffeb
fefe
01fc
0094
022c
fe1e
036d
fcbe
ff42
fe15
ff9b
0284
03da
fcc0
fc17
0126
fa4b
ffdc
01ba
0293
011f
012a
fe66
01b5
008e
fe2e
ff3f
02db
ffe7
fe7a
0172
fd0d
fda2
fdd5
033f
0326
fcbd
fff6
00f0
0383
febf
fe40
02d0
fe0e
00f6
ff67
010e
018c
fdf1
fec3
036e
0270
0451
0391
fdae
fb8e
fb6b
0084
01cc
03ae
ff6a
0114
ffdb
0195
03d6
035a
ffdd
0202
0073
fe3d
01db
01df
ff6b
fe80
02cb
03af
fec6
fe7c
fc9c
0322
fff7
0380
0138
0303
0126
ff03
ff60
01f4
fcf8
fd7c
0043
fe0a
fe5a
ff6c
00af
02e1
0161
012c
0137
010c
fa9b
fd61
fe9e
0356
fb89
fe85
0035
fbe1
00fe
fe9c
0056
0541
0108
014e
0195
021e
ff98
0284
0270
fd64
008d
02e2
000a
0148
044e
fc0b
03be
0348
fdff
0176
ff46
fee1
ff19
005e
0077
feaf
fb47
0216
f9bf
038a
0360
001d
002f
fdf4
01c8
ffb1
fdc5
0355
ff89
fa3c
ffee
ff8e
0035
0013
0010
0192
ffff
fe73
00a8
ffd5
fdbc
0233
01b9
fe63
ff95
0334
fca3
01d4
fb62
054a
044b
00d3
003c
002b
04ea
fee2
fe55
fbaa
fcec
0072
fe93
0408
03a3
01f6
fe1c
02b1
fd82
024f
030f
fff4
0136
ff06
0360
fed8
ffce
02cf
0557
fe7b
ff1e
fe56
0096
fee3
fe76
0194
0191
0577
00d2
00f4
0071
ff33
fd2e
02ee
ff5f
ffad
0333
fd9d
ffd3
fc17
fc67
0404
fd65
02fa
01f2
0049
0185
fea7
fe10
0427
fcc5
0078
024f
ff26
04a2
003e
0284
fe6f
00a4
fe97
01e3
fdd8
013a
f990
0386
025d
0383
0101
fe4e
fd99
00dd
fe75
fd2b
ffd9
ff1e
01f7
ffc0
fd00
0197
0150
fcd4
fea4
fe3d
0198
fc77
0033
fa50
017a
fdbb
01cf
fe91
008a
fec2
00a4
fd76
fc06
0185
fd54
0341
00c3
fb65
023d
002f
fcbc
00ae
00c0
fb11
fee9
ffd4
002e
0275
fb89
00b0
05a3
fdd9
00ea
fded
024b
ffd8
fbe4
0113
fd83
00fc
ff2d
fcf1
0188
0020
ff03
fbd9
fd23
fe31
0604
02b9
fd5a
fddf
f997
0013
01f2
021c
ff7a
009e
01cd
0029
0078
02e5
ffa6
fe08
fe90
0035
039c
ff2c
036a
02d2
fe4f
007e
ff34
0003
0273
fe2b
0011
ffa9
00c8
02eb
02ce
feb3
020f
fd39
fceb
0581
0271
ff6c
fe23
0324
fdf2
fed0
0070
fe46
fe4e
fd48
ffd7
ffee
fe94
03e8
0210
ff88
fed8
0121
ff7d
02e8
fc4a
fd68
01be
0121
fd9a
ffdb
ff02
0496
0106
0141
fbab
031e
0131
0367
031a
fde9
ff46
ff8a
feab
0170
000a
0271
fc19
0184
ff3b
ffc8
03aa
03bf
0161
008a
fe8b
019a
ffc6
0295
fd90
0248
fdd4
feda
fc08
0237
02f6
00c4
0218
01cf
fecf
fbf8
ff9d
00f1
ffc1
fd23
0429
0082
04f7
fed2
fe04
ffc1
ffbe
0056
034e
017a
fcd8
ffd2
ff05
00eb
00a6
00b2
fe0c
ffb3
feed
0058
0083
0258
0159
fe4b
fa7b
0244
00de
0256
ff33
fcde
03e4
fdca
ff4f
ff6f
fe7e
0093
034f
ff02
f8c9
fdf7
fea0
0327
0316
0163
fe72
ff8e
fc10
01d3
020e
ff10
fab8
02c0
fdd2
01cc
02ad
03ef
01a0
0264
01cb
0144
ff91
0284
01d6
00d3
0320
006c
0040
fdb1
0072
00fc
feb8
0281
0130
0269
fd4d
0077
fab4
003b
009d
ff64
0080
00b2
0045
fe85
fdc2
fe28
fba5
ff70
03ba
0228
013f
0249
0158
fd4c
fb6c
fc4d
fe7c
ff55
fde0
011d
03e0
0209
03d2
fb15
fe4a
03d0
ff8e
01f9
01a7
00bf
ff9b
0126
00e4
006e
0029
0375
fe7a
047d
fc96
fcb7
0138
fe81
02d0
000e
fd6f
fe35
032c
0289
fb1d
fe86
fbd7
0102
02d5
fd19
fe5b
00a5
ff3f
ff58
0179
fe97
fdee
035d
fb4f
00ae
012f
0130
0005
0534
fea8
fdcc
fc10
014f
0086
fff5
0113
0221
06b9
fdcf
fe62
fd4f
0249
ffc8
021e
020a
ffd4
fef0
007d
fda2
f9e2
ffe7
ffa0
ff7e
fe10
0140
0251
002e
0019
fdd5
fe25
fe07
0543
0106
ff2a
0129
fe7a
062c
feae
01ce
00c8
ff64
ffb2
fd26
0165
0410
ffbf
02fb
fd1b
fde6
03d4
00b1
01d6
04f2
038f
fae9
019b
034c
0143
feac
030a
031f
031d
02b7
fe2a
0029
fead
fcd0
04d6
0233
0209
fd3d
0235
fd9a
ff95
0169
fa21
0459
03db
fec0
015c
0317
fe3c
014a
fb1a
02e2
00da
ff31
fdd9
fa1c
0497
003b
fb3b
ff9a
ff1f
0284
01ec
008b
fdf0
0006
0261
01cf
03ca
fc01
017a
fd3d
04bd
012a
01ca
fe70
ff16
ffb3
01ab
fed1
00ad
fed5
0134
ffc9
04bf
0095
fe95
030d
fff5
0232
fdc3
00e3
0062
00f6
fda3
0370
018e
fcf1
0184
ff61
0009
ff5a
03a4
fdb7
0002
ff01
00bd
ff94
02f4
00ec
0003
feb9
0051
fdae
ff13
0020
0111
fe40
fec2
0284
0128
0349
0055
fe43
fd42
fe95
017a
ff01
03cb
f972
02c6
0060
fa2a
fe81
ff2c
00b1
021a
017a
0099
fce8
0053
0087
002a
0320
007d
0390
fd31
ff94
ffd3
ff84
fe57
0118
ff4b
00b7
fd32
03ab
fede
fd94
00c5
ffe1
ffa0
fe5c
fe02
ff66
0176
053f
00a0
03f3
fdf8
00c5
fee1
0013
04a9
0403
05c0
fac9
00b8
03e2
ffe1
fede
ff8b
0403
fe76
feca
fd71
0142
ffdc
0225
fea7
00a6
ff33
ff01
0371
015e
fe3d
fea7
fecf
ff91
fed8
01a4
fdaa
feca
ff60
00b4
ff5e
fba8
0391
0353
fba0
ffb0
03ed
006e
014c
ff2a
ff31
fed4
ff52
0273
024c
05ac
ffe1
00e1
fecd
0062
01c6
0241
01b6
0292
011e
0154
0094
fb8e
0277
0405
000b
0185
ff72
fd78
00d6
fcec
ff7e
fd45
02d5
0180
012b
fe53
fe1d
ff02
fc05
fd36
fee5
035e
fc7a
0134
0166
ff7c
ffcc
fc9c
036b
014a
009a
0165
fffa
00d1
fed9
fbe3
00e9
000d
03bf
0495
fd8a
0340
fed7
011d
012a
fef2
0042
0335
0070
ff8d
01cf
fd5d
fd7c
003c
fe39
fed3
ff7c
0290
0050
ff35
ff99
fa4c
0362
018f
fd2b
02ba
003d
fe34
015b
fe6f
0237
ffa8
00be
0253
fe36
0014
fc3d
fbfc
ff15
0108
04b6
02b4
019d
024a
0521
009a
0562
fe00
0018
0195
0158
ff59
0100
0115
0420
013b
0194
0178
ffa5
0089
fe4c
fd98
0052
022a
012c
038d
0280
000d
ff68
0211
fca6
0227
0457
ff89
fe3f
fe54
ffce
0135
018b
fe58
0153
ff3e
02f7
fd78
0587
ff79
ff62
039c
0106
025f
fa55
ffec
fe52
0299
01b2
01ba
0083
02ba
fd67
0034
01ad
00c7
0143
fcf6
fe23
01dc
002a
060b
fd5f
051c
ffa4
035c
ff04
007d
f93e
010b
017a
fe9c
0043
011f
01d1
ff1c
fe69
ff71
0011
01ac
037c
fdaf
0226
00fa
feff
fd03
023a
fe2a
016b
01a6
fe52
fae2
fe33
052c
019b
ff4c
0439
fed0
006c
03b0
00fb
00b6
fed1
03aa
fe70
ffb0
ff2c
0215
fdb9
fb40
fe9c
fc3c
0087
ffab
01d7
0255
0134
0252
ff61
0394
fe91
fed5
ff6d
0089
fbf9
0126
fc77
019d
001d
00bc
0183
fd36
01bc
fedb
fe52
ff95
006c
fc1d
0322
ff5f
ff76
fd06
fcab
0253
01a1
fe4c
fbc4
059b
ff59
02ff
00dc
fcf1
0228
0237
fe45
fbe4
01f7
001f
fc9e
fdff
0145
ffaa
0593
ff96
feb7
0055
0070
fe8e
01b5
fd0a
008b
013b
0065
fefc
fda5
0033
fb14
fd2d
0048
fea9
019b
02ec
fd01
fcd9
007b
01b4
ffc8
021e
0245
ff89
0116
0032
0199
038a
fb19
fbf1
fcf5
fdb1
0587
0199
fe9e
ffef
0201
ff83
ff34
0175
fdcd
fb7a
0014
fb82
fe73
0416
0400
01df
fde6
0119
0174
fb98
ff25
ff16
fb26
fa41
ff04
021a
fc2e
0213
01a6
ffff
fef1
024e
fe82
fd66
0436
0076
0120
ff58
fa89
0061
022a
0133
0283
ff41
faf5
fc06
fe50
fd81
fbd1
0359
fdc0
ff20
018d
02c9
014b
ffb0
0183
0016
fc9b
ff0d
ff72
fce3
fbd4
fc35
00b7
0118
ff9c
fd5a
00a7
041f
fdc3
01dc
fde9
fc89
ffaa
02c9
0014
0224
0042
0066
0030
0468
fd65
00a2
fb61
0260
fef7
fe65
0060
fdef
02f4
0201
012c
01e8
fe61
0258
021b
0475
fdf2
028b
006c
fb27
ffef
0002
fb1e
fdf7
fe3b
fedc
028b
03c2
00f4
ff3e
fe33
ff91
007d
fcda
013b
04a5
ff7c
ff0a
0080
068d
01d5
ffee
00b3
03e5
ff48
0120
0206
022f
030d
0155
ff3d
fd77
010e
fc9f
0305
025c
0164
fe1e
fd6d
013f
feb7
fe3e
fdb3
03c5
fcec
fd24
00e5
0027
002a
03ae
04ed
fe29
feac
fe94
00b6
ff5f
0221
fef9
01aa
0037
fe92
fd72
0197
fbc0
01cb
0061
fe2f
ffb8
03b5
fe27
fe3f
fead
fcc8
0187
0258
ffed
00a0
03e3
018d
ff06
fe84
0285
fcab
0480
fee1
02b0
fd65
010d
ffde
fde1
01e9
01b3
fdde
05b6
ff75
fd85
00d0
fe12
00b2
fd4b
006d
026c
02f5
047c
022e
01ca
0458
0038
00a4
0096
02f0
0162
fc23
fa66
0673
00ac
01e6
fd91
019c
0166
039e
00f5
fe35
0173
02ce
fcd9
00c3
fd04
fbff
022c
fed5
04ff
ffaf
fdca
007d
0072
fbd5
0014
003d
ff59
fd92
ff28
071b
01c8
02f7
fde4
fcce
fc98
fa01
01b3
fec1
0215
01d1
0029
ff89
fee6
fdf6
fdaa
fd8e
0155
fcee
01c8
0102
0152
0171
0196
fe8a
020a
fcc1
fd1e
02a7
042f
ffd1
fe40
fdb1
fec6
0303
fd7b
0540
ff1c
0295
fed5
0129
0309
ff90
ff7f
f972
05d9
ffbf
fe58
017c
019c
0259
0057
0080
ffa7
01fd
ff28
ffef
02e4
0197
fefb
ff8b
00d2
0018
005c
fcda
fac1
ff4e
fd2e
ff63
039e
0265
023c
02c4
03f5
03c4
00eb
fd7f
014d
0071
fc42
fd91
006a
fc41
fca2
fd45
0264
0113
ff80
fc2c
ff89
0448
011b
0219
00fb
00e0
fe44
fb34
fe18
ff9f
0285
fe89
facc
0286
00f4
fce2
fdcf
feef
fe5a
fd8a
ff72
0112
0288
fe0d
0036
fe0d
fcdd
0048
0088
ff57
0096
030d
fcbd
00aa
fd52
f80d
00f8
ff39
03cb
ff68
fe55
0409
00a5
003e
00a6
ffcf
01e4
02cc
0035
fe60
fb47
fe7f
feef
0202
ffa9
fed9
ff79
fd57
0068
ff3f
ff4c
fe51
006b
0176
ff3e
fd6d
02b0
ffb0
fc0c
fefc
fc3b
fd08
0268
032e
ff77
fe92
00d2
023f
fd41
0295
fe58
ff36
ffb9
fe21
014c
fd91
0008
ff37
fe27
ffe4
fffd
0076
f97c
019e
014e
fd48
ff95
febe
fb5d
fcbd
01a0
ffb3
0278
fe23
fe9f
0082
0201
003d
fbdf
02ca
03e4
01fc
fe87
0188
006d
002e
fe51
fd27
ff5a
0280
fbba
fde5
ff6a
fe5f
030a
0182
ff51
fe8c
0154
ff9f
02b4
fad2
013c
063e
ff4f
007e
fdce
ffed
ff6e
0227
fd7f
fd78
fd6e
01d7
0208
0029
010a
0036
fbcd
013b
fff0
02c7
0371
fe4a
ff85
0216
fc61
00ef
0339
ff4a
00eb
fe0d
fee2
ff1a
fe7b
0165
019d
04e8
fd24
fe53
fdf6
00b3
fd91
0295
012a
022d
fcc7
fd75
01e6
01aa
ff07
ffd8
fc92
04c3
046c
02bc
fda9
ffc6
0005
0175
0170
0064
fe99
fecb
feb1
fc8d
00c4
01c6
ff6c
055e
feb2
0136
fbdf
fe8d
ffe5
fcc3
ff80
0230
046f
fb96
fb3c
fed0
0014
ffb9
0101
fed7
fc43
