042a
0063
ff27
ffb8
fd53
fd4e
fdea
03c6
000f
01a4
0040
fac6
fdb5
0315
ff8f
fee7
ff59
fefd
01a9
ff8e
ff79
0158
0180
febb
ff29
feeb
001a
031b
0258
009f
0005
02f7
01c1
0268
fc03
ffd4
fee2
01c7
0252
ffe2
fe88
fdf5
fc57
ff45
01d7
fff6
0104
fe9a
0283
0189
01c0
fd54
feb0
0326
fe52
ff92
ffee
fd50
017d
ff44
ff42
fbc3
feb1
fe90
0315
0113
ffc2
01a3
fe23
ffdc
fc67
fd99
0393
fd92
057b
fdf0
0239
025f
0363
fde5
0152
fe29
0216
024c
01d0
0206
ff0d
fd96
00d0
0076
ff97
0164
0059
fe44
027a
ff04
00b7
0166
0232
0266
0161
0257
ff7d
0032
0091
0527
0198
fd70
ff25
ff52
0161
faae
01c3
fece
043b
fffe
ff24
ffea
0085
fe24
0246
022b
fe6d
ff78
00cc
00ed
fd8e
fe87
02d5
00c4
fd8c
fea6
02c0
fe78
fe68
ffe4
00df
0128
fc48
0148
fdeb
0114
008b
00a5
024a
ffdb
ffee
fedf
fe54
0299
02b3
00af
014f
ffda
fd28
ff87
fd5e
ff40
033b
ff98
021d
032b
00f8
0068
0227
0118
ff99
fe92
0169
fb92
fccc
fe0a
ff31
04ff
fe92
0000
0344
fda7
0477
0094
fe6f
fdc3
fc83
fc4f
fe8e
00d2
00aa
ff27
01b0
01a6
0156
fe1f
020a
fdd9
ff4c
fdb4
fe29
03a3
ff2b
fdb7
01a3
fd13
ffae
fc26
01ba
fd94
fe78
fff2
0168
000d
00e7
0272
030a
fe72
fe09
feff
fc05
009c
0134
02cb
fd32
013f
fd68
ff7e
0185
0220
0051
fe4e
ffb6
013d
fca9
fffd
01b5
02e3
fea9
0121
fd5c
fdb3
008a
fd14
ff41
ffbb
ffa0
04a9
fd69
022a
00ef
00c5
ff38
fe7e
ffd3
00dc
0216
ffd1
fe8b
fe42
fdbb
ff48
fed3
0074
031b
fd9c
ff18
fea2
ff99
0371
fcf5
0108
ff67
fefe
01d0
fe45
feb7
ff46
fc99
02ca
fe93
005b
fe48
ff1b
fe90
00cc
00fb
011b
0276
00b5
0017
fe5a
ff36
ff2c
0082
0374
0408
0371
01b5
04fa
0418
ff82
003d
00d4
fec5
01e0
00c3
fead
fe3b
013b
01e5
0344
0141
fcb1
02b1
00b2
012f
023c
009e
fcbe
fcf4
0043
026c
0082
fbce
0078
fccc
01fa
00ee
fec0
00cb
0478
feab
ffc1
0009
fcef
000b
01cc
ffb7
ff4a
0216
fe9e
00ef
fee3
febb
fee0
fd2e
ff31
ffcb
0006
00c0
fffa
00b9
ff7d
fcb9
0225
0004
009f
0396
fb70
0059
00d6
ff34
00da
032e
fcd1
fd11
fe80
ffd0
ff73
ffe0
fe83
ff8b
fe81
feff
00e1
0146
fd01
0307
0242
fae2
017a
fe69
fff9
fdc5
fe5f
0260
ff07
00cb
ff19
00d6
fe34
03ae
02a3
f975
0059
fe6d
000f
fea2
fe03
ff47
00e4
0170
fa49
0003
005f
0242
fc73
fe9d
fbe6
fb19
fdb7
00ae
fd38
fdb2
fe84
004c
00be
ff79
0366
0269
0183
0505
fc50
005e
00a7
0023
0306
feeb
03a7
00b2
0005
fd16
ff95
feaf
020d
ff67
ffdc
0197
0269
fbc9
ffdd
fe92
0019
0145
0113
0151
007b
0025
fed7
fc66
013b
004f
00c7
0250
fe6d
0020
0099
fd8c
0035
fd13
ff69
fcfa
0141
0246
00ce
01e0
019f
fd5e
fd6e
0437
0159
ff34
0354
ff09
fcaf
0116
ff9b
feec
01da
00d5
ff76
fce0
02c2
fd71
0284
00b5
fdb1
fd23
01e6
fdba
ffcb
ff54
00fd
014c
038b
0458
ff8b
feb4
ff1e
fe20
fe80
ff45
fdef
ff71
0233
fd7b
0129
00b4
ff82
0224
0124
ff49
002f
ff5a
025c
0121
fe6d
fedd
fdd1
01f6
024c
01f4
fe08
0006
0167
fdd1
00f2
00a4
fc1a
024b
0260
00bf
ffaf
fd81
0205
ff9a
fd43
fe58
fab2
ffab
fc5a
017b
fe95
001e
ffb5
fe5b
ff7d
ffb9
01f4
0005
0165
00fd
fc54
fffa
0356
00e8
02f4
02a8
03b3
fdbc
ff0f
01a8
0082
0303
fef3
ffbd
fc44
fe3d
012c
fd73
fdae
0108
0190
01a3
0028
023e
01c4
0097
0219
001b
ff38
009b
00f8
0252
ffa2
00e7
fe95
004e
ff48
00c5
0314
fe3a
ff7c
fcfc
fe76
fbcf
0011
ff84
0103
ff1a
007a
fd11
ffcb
0298
015e
ffb1
0152
fe4c
0264
ffaf
fd62
01b6
02c1
010e
fdbf
03c8
03b3
ff32
fe30
0036
02f1
ff9b
01fa
01b6
fdcb
0326
018e
fb32
ff25
fffd
0434
ff8d
fbb8
fe51
03a0
ff85
ff8f
0437
0242
001b
fd61
01b7
fc79
fe8b
0105
00ae
fec2
003e
001a
02da
00c6
ffe5
0041
012d
fd7c
0318
0073
ff4e
fef8
feaf
0017
ffce
fde5
fc45
ff9f
0028
ffac
fea9
016c
0096
00e6
0033
fc33
02de
ffb8
01dc
0266
0109
fdc7
04eb
ffd0
04eb
00e2
ff5c
fe05
fff5
fb87
ffa6
ffb8
0116
fef4
ffc6
0239
0157
01d2
ffbb
fe81
00c1
fea4
fd76
0139
0074
00cc
fd2b
01dc
01bd
fecc
01df
01b1
fef7
ffda
01cf
fe33
0068
fd47
ff64
ff24
fe92
00e5
0111
0193
fdf2
febb
ff20
fe1d
feaa
ff88
023e
fe29
fe5a
005f
ff1c
0022
ffac
02fb
047e
01a3
0256
ffdf
fee9
fe87
fc58
01a2
02e1
fca2
ffd6
0055
01a9
ff98
fdd4
feaf
ff5e
fedf
ffd5
02da
fdc5
01bf
00c8
fd5d
fd6a
00bf
0235
fcf2
0144
03ab
ff10
ff69
fff1
0023
02c6
030b
fe62
fe6c
0298
006b
0171
015b
fe4c
003a
0022
02a0
030f
0130
ffde
ffa3
fef7
06be
ff2c
ffdf
fd06
ff4c
013c
03af
ff52
00b5
0157
fbe8
021a
fd4f
fda2
fb78
02f6
0247
fc9d
fc6f
ff8d
007b
0122
00cd
0290
fd94
fe1f
fab4
0254
fca6
008d
ff32
fe5f
fda2
00ae
fe95
059a
018e
00cf
005a
030f
0068
ff06
fed5
fe8b
008a
fe16
fda5
ff76
ffbc
ff70
fe2f
0241
01b0
006d
00a4
feba
014e
02a9
ff1d
fe15
012c
0030
01cf
015d
fc87
002c
fdcc
fdd8
fc57
05c9
003d
ff96
ff7a
002e
0429
fbb5
fed9
fd30
fe7e
00b3
fe13
045b
0204
fc22
ffcb
01cf
ffeb
014c
02a5
fd9e
01ce
fb83
fe43
00c7
0247
fb2c
ff0a
000e
fe50
009f
02d3
005e
ff16
fd5f
fb72
ff0a
01fa
fddb
0232
fe76
0080
02ad
fff8
ffcb
ff4f
fffb
fd2b
fccf
01b8
0131
0283
fc94
fdf8
fdd0
fc6d
03ee
fff2
fff0
032e
fc72
0191
0409
fe45
fb93
0380
018f
020a
ffdf
fe7f
013c
013b
020b
002f
0037
0300
0084
0243
0456
ff26
fec6
014d
0127
ffbd
fba2
ff01
04bd
fed1
027d
00c4
03b3
013e
0007
01a8
0141
0142
00d9
006f
0255
fe3e
02bb
fe53
ffa1
fedc
fe7b
fc77
01bc
fb19
ff01
0014
fcc3
00ee
fdc9
00c1
0150
0137
018e
fe22
ffa9
fe63
0115
0144
005d
fec4
035b
008e
01d3
ff5b
0136
0063
002b
0314
0273
0218
fcb5
fea7
01b3
fee0
fce4
00ff
fd45
ffa2
00db
ffb5
fd1c
01ef
fe7c
0161
ff27
ff20
fd3a
ff26
fff1
ff24
00c9
fe61
fdea
0171
fb61
ff4b
ff51
02d9
ffc3
fed7
fed0
ff5f
fff8
0130
0382
fbe1
ff52
03a5
04eb
fe0b
ff43
fe8c
fda5
fe55
0325
ff4a
fe37
ff2f
005e
01f7
fefe
023f
ffe0
00a8
023c
feed
01cf
fffd
0105
037e
fd07
020d
01a6
fea2
0063
0159
0211
01e1
02ff
ff89
032c
020a
fd13
010e
046f
0294
ff33
0155
021b
ff3a
fda6
fcea
ff7d
02bd
ff5b
0333
0017
017a
fed7
fec4
0126
fe24
0095
fe71
fef6
fefe
fd25
fcdc
feb7
00b4
0209
0349
0270
fea1
fea9
0146
fe31
ffbc
fc5d
fe1e
ff75
013e
00dd
ff15
ff23
ff9d
fd8b
0059
ff62
0017
025c
00d0
fdc1
0372
ffe1
ff33
feb2
fefc
ff5d
024a
005e
ffcf
ffba
002c
ff9f
038d
fffb
fe13
0359
0266
00f0
012c
0057
fecb
0343
0206
fef0
fe4c
ff48
000b
fe54
ffb4
ff62
fe7e
ff54
feaf
fc85
ff19
0082
015d
015f
01b6
0352
fd76
ff77
0355
010a
0145
fecd
00d7
fd36
0054
ffee
0003
0309
ff1e
ffbb
0258
fc5e
0334
ff56
0212
0252
0001
021d
0092
fea3
fae1
fdaa
01f3
fda2
ff4b
019b
fdae
011e
febc
00c9
fe66
fff5
fec1
fc04
fbaf
ff0b
051e
0483
029c
0010
002a
019c
01ae
0053
064e
0117
fef4
0222
03c8
feef
0407
ff63
059e
fe63
fe87
00ed
ff62
009b
feff
0286
fe05
fed8
0067
016a
fcdf
011d
fcc0
ffbf
fdc6
fcf7
fd62
fcdf
fda2
fee2
fc74
ff74
004e
0080
0033
0210
00bb
0002
0096
03d7
fe36
fff9
0026
01a8
0215
ff9b
fdf1
ff53
0176
0261
fec1
fe08
00fd
01f5
fe83
0236
ffa6
0026
ff5a
ffb7
ff25
00db
0155
0117
fd3b
00ca
01ee
018e
fd1e
002d
fd9f
ff4a
0113
fe3f
ffbe
0236
0091
0025
ffcd
fe71
02f0
ff94
fff1
ff0a
fecc
0153
000a
fd58
005a
fe93
026a
0134
0020
fe65
021d
ff50
fd82
fdaf
00da
ff93
fb9a
fec2
ff1c
013b
fe92
ff72
006e
0217
00a7
01f2
002f
fee9
004d
000b
0223
fee6
fe7e
009a
fe58
01b7
0067
0022
0060
feea
003a
fbde
015d
fcb2
0118
fe2c
fe8b
ff35
fdb8
0187
0114
00e5
ff96
ff46
fef3
fe40
00f4
0183
fec8
00a8
fe0d
fea9
0112
ff89
fc4c
ff07
00d5
00d9
024b
043a
fdda
01c1
ffc9
00cd
0278
00b2
007c
fda2
fdd9
ff92
02ac
fdce
001a
01cf
ff6a
010c
0436
002c
ff77
0035
ff0a
01bc
fd87
fe66
ff98
fae8
01f5
ffb5
fed2
00a4
0139
ff34
025f
fee8
00b4
0047
017e
017b
0217
02ae
fe64
ff1f
0044
fdbe
feb1
0144
ff21
0160
0023
fe12
0253
000f
fdc5
fff7
0034
01c5
ff48
fd34
ff8b
ff43
fdf3
030e
ff48
0315
011c
ff75
ff82
011c
00e9
003f
fe07
fee1
0209
fde2
0105
ff65
02ad
01f2
00c6
ffd9
026c
ff21
ff89
0131
ffe6
006d
ff35
0305
ff31
fd14
03d8
002e
ffe4
0215
fd33
0089
0137
ff8d
011b
009f
0267
005d
fec1
0123
ff6e
fd91
fed7
0014
0233
ff94
00a4
0284
017f
fdad
0140
02b4
ff0e
fdbc
01cf
0173
00da
fe4d
00c9
017d
0369
fd40
01a0
fe92
fe89
fcba
ff3e
000d
fe0e
02fa
0148
fe86
00d8
ffe7
fe6c
01f6
01f1
00da
00d2
03bd
ffe3
fea6
fe61
035b
000d
018c
03d6
ffea
ffca
0062
013c
0058
fdd5
0567
fee2
fc33
feb1
00eb
ff61
0267
fff7
008f
fcf6
0435
ff20
fbbc
fd61
fe0d
022a
ff8d
fe6c
00fa
0177
0213
ff2c
fed1
ff60
ffc6
fd20
fda4
0046
fc17
fff3
03b2
02d2
007c
016c
fd5d
01b0
015d
0196
fdff
00f1
02cc
0239
ffa6
fc61
001e
fdf5
faee
0120
024e
0186
ffb6
ff84
014a
037c
fe67
ffce
fb8a
021a
fe7a
fd7a
ff79
ff10
feb3
ffcf
0170
ff9f
022a
fcde
0223
0066
fceb
0044
ff23
febc
fee7
0231
fbcd
0020
01c6
ff10
fc1c
ffab
fe5c
ffe7
fe4f
ff9b
01d5
00ca
fe3a
0133
0222
ff53
feb3
fdfb
ff92
fdc7
0227
ff4b
ff32
fee5
fe18
fe03
01fe
0297
ff99
ff2c
fedc
013b
01b3
0303
05a8
0253
fe29
fccb
ff9a
fe27
013e
01dd
fe05
fcc7
00de
00a9
fe39
fffc
01a5
02a0
fee2
0319
fe88
0032
fe7c
0196
ffa1
fcb4
fd26
febe
0138
ffe5
0040
ff88
fc59
0036
000a
0064
ffa0
03f4
00fb
ff7a
0059
0253
0022
ff58
ff0d
0231
01de
00c3
ff8e
ffb3
fe4b
0204
00f2
00e3
00b6
ffe5
feb9
0119
fee9
ffad
ff54
ff8d
ff6c
01e8
0053
00d2
ffe7
00b4
fcd8
0489
ff87
009c
fd87
fecf
023d
ffda
039f
fe2f
0149
fe4f
fdfc
00fe
02ce
fe65
021c
ff72
fda5
ff78
feba
fee6
01b5
0074
0078
0120
017f
0057
ff95
00d5
fbaa
0225
0218
fe25
02f9
02f6
0005
0050
ff68
00b8
00b5
fd51
ff17
0020
021f
00b6
ffef
fe18
fcf1
02f7
0034
fe84
fe49
01a9
fde7
fd21
fac0
fc94
000b
ffcf
01af
022d
fc68
023d
febf
fc03
013a
ff87
fe05
fe5e
feb6
fea2
fe69
ffe2
028f
fceb
003e
017e
fe8a
fe34
049d
fecc
0339
00a2
01e0
0143
009e
fea9
002c
0412
ff1b
fdbe
ff8b
004d
fe5c
0148
03e0
0226
fdb3
0244
ff3a
0268
025a
01df
0035
fda5
000d
ffa4
0256
fdde
000a
007c
fcf5
ff5c
fe99
0190
0066
ff8c
00f3
ff44
ff78
ff80
0134
0378
0083
fe90
fe5b
fe49
ff11
fc99
00b1
00bf
016d
fe7b
fce3
017e
0211
008d
fd9c
fea7
000d
ff1e
011e
fd21
0069
fc75
042c
fa7e
0138
ffcc
fb65
0123
0379
01ac
003b
029c
ffc8
021c
01e4
01a6
fdb8
fc2f
ff31
0061
0300
0218
0183
ffa7
fea0
011a
ff42
02c9
000a
fbdb
0267
00e8
00d2
0212
06df
0379
0032
fee3
000c
fef4
011d
fcc3
fd1e
023e
01d8
fc2a
021b
fe92
febb
0042
ff1d
03ee
ff90
0161
f9d6
fd8e
0119
ffd0
fdd9
00e1
fe65
0003
fe9c
fd4a
ffdd
fe8b
016e
034f
fc84
fdc1
fa4d
019b
03c4
fcc0
fd07
028b
fd94
fdb8
040f
01c1
0287
0232
fd51
01b4
0319
02ec
0132
0408
fdc6
01af
fef5
03d5
ff6f
fd27
0229
019c
0105
fe0a
fe6a
01df
0188
ffc1
fcec
00c7
fe29
043c
fe9f
023e
fe0f
016a
0400
02f0
faff
ff09
fe75
0252
ffb9
fc2f
0358
fec0
f9c6
fd99
ff2e
0081
fed6
0056
01cc
025f
f9b6
049b
ffd5
fd0e
ffa0
fc70
042b
03b9
ff57
ff36
01ca
003c
026b
000d
019c
0148
01e1
0160
fe3b
ffbc
fbf6
f8fc
fa9c
fd72
ffad
03f3
024f
fd61
fc0c
fcd8
fe66
fb08
fe3f
ffe7
02f3
fc9d
ff86
0351
fc98
fe7c
0063
fd95
ff15
fe1f
fd66
015e
0303
fde3
fe97
01ef
fe39
0104
fad5
ff44
fd4a
fae5
fdc3
ff90
008c
0033
ff2d
ffe1
fee6
01c5
fc57
ff70
04fd
0215
0186
fd47
0165
02cd
fec8
02fb
0060
017c
fe61
ff7c
fc91
01e2
feb0
ff8c
00a8
01eb
ffa3
ff5f
03a1
ff7f
0166
fc37
ff6d
01d6
fe0a
fbc9
fb7c
fe1d
0002
fe9e
0138
ff68
02a2
fef3
0154
ff8d
fee2
006c
03f7
fee9
042a
ffd3
0014
ff17
fee3
fe4d
fffd
ff0e
00d2
011a
fc99
febc
fcd2
ff0b
fe22
01b4
ff24
0315
03ab
020a
ff1d
ff67
ffd0
fead
01f8
016f
ff2f
fdfd
fcc0
00fa
fe7e
ff91
ff19
ffb7
fc5e
01c1
01c5
01eb
fc7c
0104
0029
fd30
0229
00a7
fd24
01c3
01d9
ff0d
fe94
0043
fe11
fd2d
fbe2
ff6f
fc67
fff0
fcab
ff75
fc23
ffce
0468
02b3
044d
0226
00b3
ff46
f94c
0261
fe21
0391
0380
01f2
012b
033c
01d5
fcee
fd5b
04e1
fea4
f993
002f
0247
fed9
0072
fd1a
0039
0203
fbda
ffa1
ff58
ff57
ffa0
fe77
ffec
0104
fd8a
fe6d
ff76
fbdb
004b
ff37
00d7
035f
feb8
0142
0396
ff03
fea6
00da
ff4e
03bc
031d
01fe
ffed
feca
ffb2
ff69
0320
ffd6
fcdd
0198
fd8b
fef9
02dc
ff17
ff42
ff75
fd10
008d
fd95
026c
015f
0040
0065
0203
0082
fb5c
004b
01a9
ff36
0215
fee9
fe10
00fe
fe9c
023e
0049
ffda
0063
fdc9
079c
fdf0
ff47
0123
ffd3
ff4c
03b4
010f
01ed
ff42
ff2b
0293
ff9b
0427
0348
00f7
0332
01ea
0101
fd63
fd73
ff53
0137
ff24
0060
00d7
0046
fd77
ff8e
0544
0068
fe51
febf
fe8d
ffbc
ffc8
00f2
ff51
004a
0341
ff74
0125
ff5f
032f
fe89
000a
ff62
023d
017a
0093
ff30
ff71
fea6
fefa
ff8b
0262
0355
fe43
0083
0317
fc6c
0100
fdb9
ffe5
fd0c
ff13
00f2
fed6
fd93
0030
0140
01ed
ffcd
00cf
fed8
013a
fea0
01aa
ff6c
fe66
0104
00c4
fd92
00a5
fcec
0139
0060
01db
0054
ff5a
