01cb
fddf
002a
fee8
fec9
fc47
035c
fea7
febf
00e1
fd1f
fc17
0088
02a0
ffe7
fdfa
0076
01b6
ff04
ff67
0227
01c8
fcd9
0070
fe0e
ff84
0219
02d6
021c
fc06
ff66
03a1
ff46
011c
0141
0017
f589
0107
fe71
01b0
fced
fcad
fedd
fe8b
03bc
0044
01a7
ff4a
0137
ff23
041b
fee4
fe2e
010c
015e
016e
0056
03b3
02b3
012b
01ba
0039
05ef
ffa3
01e3
fe6c
056d
0470
fed5
fef8
ff0e
01dd
ff88
022b
0109
01f5
fd33
0034
fe7d
ff7c
02c7
ff23
00cb
01bc
02e5
017f
ffdf
ff8f
02cc
fcad
fe17
0018
ff98
fefe
fe72
0047
011b
ff49
ff81
0233
025c
ffe2
0214
fdc4
015f
032e
00c9
ff15
0199
02ee
000f
fdb3
022e
fd14
0027
fcd0
0076
fedb
ffee
0200
01a6
0072
0039
008e
057e
feea
fe43
fcd1
fe7b
0365
0093
01ed
00d2
01b4
fdc0
0181
fe06
0235
ffb7
01b7
fcfd
0343
fb1c
ff73
ff99
0135
fb96
fd1d
024a
ff6b
0153
032b
00fa
0295
0146
fbb8
003f
019d
00a3
03f7
ffbf
0055
ff20
0142
fd49
0028
febe
0164
025e
014d
01b7
ffe9
fe91
028a
fe71
fe89
feb2
fe63
0379
00b2
01af
fbed
fcf9
00f5
fb2e
0153
002c
0219
012d
ffb5
00c8
ffbf
ffd3
ff1c
0050
fdb9
ffcc
00c7
0068
0138
0083
0134
ff6a
fd9e
fff5
fdde
0000
fe17
02b5
03b4
00d4
ff7f
ff46
00d7
fdf5
006f
ff79
009f
fa1c
0238
0058
fe62
00c7
f93e
02fa
01e3
fee6
0048
001a
002e
fbfc
fd9e
fe05
0086
00ac
0346
ff1f
fda9
02ab
ffcf
fdfb
fdec
fb16
fffa
ff59
0205
031b
fec5
fef9
0091
ff14
00a0
003c
ff4f
fe07
00c2
0136
0015
013d
00b6
ff7f
ffb8
fed8
fead
012f
00d3
fde1
ff33
025e
fcf5
00e7
fe99
fd69
007e
fe5a
0022
001a
fd3e
ff7f
ff18
00bc
ff87
0150
00ff
011a
ffa9
0261
00be
ff7d
fff2
fe88
036d
ffb0
0082
ff3b
fef4
fe0f
ffd8
fed5
fc80
00bb
049b
04d1
06a1
000e
00e9
fcea
ffb8
0022
fd14
ffb9
fd6c
ffa6
017b
0676
02e4
ffcb
fbbc
014c
01ab
000d
fe46
03ff
012e
0036
fdbd
fe63
017f
fe96
020d
0387
fd7a
fb37
00f1
03b3
fc1a
fe9b
fcc2
fec3
fc52
ffab
fe1e
fdb2
feb0
01f4
f988
00fa
fd81
fd2d
fdb8
fde9
04b7
fdf0
008d
034c
fdd4
001a
ff5e
02af
fe49
01e6
fdb5
0185
fda4
0235
ff7c
fea8
ff9d
0a0e
00b5
0007
ff8a
0175
fc72
0338
00bb
ffa2
ffe9
0188
0009
fdc2
0312
fc49
ff62
007f
0290
038c
014e
fed4
fdd0
fe3d
012b
ff38
fead
fd0c
00c9
fb95
fe51
02fe
fdf3
0029
ff8f
fdab
00c5
fdd0
fecb
fe61
04ba
0164
0185
00b8
fbe8
fdfd
fdf4
0083
01e2
01b0
fc5c
fdd1
0176
0497
fe52
0051
0084
fcbf
fe28
fc77
0105
fdbe
ff35
00f7
0245
00ec
ff9d
faf7
fbec
028e
fd44
fdea
fc39
02eb
01f9
0066
01ce
0406
fc58
fc27
0265
047c
ff60
fc77
ffc0
012f
fc55
010d
fdf5
00ce
01a5
0430
0300
0340
0112
01f1
02f4
fd7d
fdd0
0044
ffde
ffd4
03a0
0019
ff0d
0014
fe45
fe83
ff97
ffc9
000a
fe1c
ff5e
fca4
000d
01ff
005c
0137
0277
ff95
0472
003f
0111
ffc2
0160
0236
0286
fd00
ff68
02a9
ff96
01c0
007d
01bd
0127
fb59
002a
fe6a
ff68
00f7
fd44
ff16
0289
ff14
0149
023a
002c
02c7
fe7f
fe28
febc
0207
0017
0258
ffad
ff41
0123
023e
fb99
ff23
0395
02af
00a4
00df
ffa0
fd22
ff4b
fea9
fe47
ff7f
fda0
0141
fe3f
0214
0094
0089
fec9
ff78
0074
0373
0139
02c4
fec8
029e
024c
fc29
ff45
0063
0161
ff46
fd33
fc72
ff16
00c2
00b3
00fb
fe6e
fdb7
00b6
fc6b
02bc
03b4
0472
01e2
feaf
0125
02d3
00ad
014c
017f
fe6b
00c6
0026
0191
02c0
fdbc
008e
0040
fe06
0388
0124
00cf
0058
00e5
fd0e
000e
0094
02a4
0013
fe83
0055
fcfb
01d5
0134
fdf8
01c5
fb8a
ffdc
0121
ffa2
0302
ff76
ffa1
fd3f
ff16
040b
fd7e
fea7
0129
0089
008e
020b
0060
0198
00a3
009e
ffaa
fd88
01e5
00bc
02f8
053c
fc3a
fcad
00b8
fda6
ff1f
fe07
feec
0125
fc3d
fdd6
fc94
fe40
016f
ffb6
fcb2
03b7
0238
ff7e
007d
ff82
ff17
ffa6
023c
ff1b
fe05
fd5e
fef5
feb5
0292
fe33
fd8f
fd5c
fff3
ff8c
027c
0132
03b3
0018
004d
0093
fe27
0402
00f7
ff33
03d3
04b4
0067
0108
00b3
fe83
fd0f
0307
01a3
013e
fdac
fb4e
fed3
feef
0096
ff98
007c
ff96
ffe2
fe77
feff
00ae
ffbe
fc53
01cb
ff80
02e3
ffff
fe75
01f4
fb77
003a
0129
0084
0061
0359
fe09
0038
fe86
fdc9
fddf
fe7a
ff99
0144
fc64
ff71
00b4
ff4f
fd53
fd4f
012a
0206
00a4
ffab
fea7
0154
fef4
fce7
011a
031c
01c3
fe48
ffaa
04c3
fe7e
fdc9
ff31
013d
ff93
fd45
ff36
0084
022d
ff60
0221
0151
ff88
00c0
01ec
fde1
ff9f
002c
fe67
01d7
0057
fdb2
01da
0046
ff16
0040
0204
ff9c
00a8
0083
fea5
0009
ff4d
02bb
ff35
036b
ff30
fd8d
fc54
ffdb
fcdf
001f
0268
ff20
fb98
fd3c
0112
fd5e
fedb
ff65
00cb
008b
ff8b
fddc
fd8f
fe79
fe8b
0209
0247
fefa
fc52
ffd4
007a
018e
fc87
fede
0186
00e8
0174
0337
01e7
ff04
fde3
0085
fd61
0507
00c4
013b
01a4
0137
0110
ff45
00d2
00ae
ff53
ff27
fdf4
fc9e
fcf3
fc09
017a
fe8e
fed9
00cc
fdc6
008e
fe23
04e9
0005
0532
0151
0200
0087
fce5
ff24
00b6
014d
fd58
01f1
01fb
fec8
0541
0046
0034
004b
025e
037f
01e8
ffce
fe87
febc
fd0b
fc25
fdbd
fe94
fb29
fd52
0567
029e
0056
0012
fe40
fed9
00fd
0230
fd03
fd88
0142
fde3
fa99
fee0
0317
fe57
024c
0294
ff7d
03ea
0035
02ed
fdea
02c3
fc6a
02a7
ffbf
ffa6
fde2
027c
ffb5
0220
fa66
ff11
0080
0146
fba8
0171
01cc
01a4
00f6
fc61
fdd3
006e
fe9c
02a3
fbf3
ffc9
010a
ff95
fe5b
ffbf
02f5
02bb
033b
01c0
01f4
02e7
ff95
fd15
ffd2
fee3
0438
0024
fbab
02a4
fe68
0106
fd14
fef0
fc7d
ff0b
fbfe
fc4e
0135
06e9
0358
0052
000e
fe53
001a
feef
fb64
ff71
0285
ffb0
0105
fb66
0022
fbfa
feaa
01c7
fd8f
fa70
ff2d
0106
00be
01ac
03e7
ffc0
ff10
013e
ff41
005d
fe0c
fdf7
fdaa
0277
0073
01e4
000b
0472
0245
ffda
02fe
ff1f
02f4
ff7a
fdf2
0199
ff36
02cc
fe26
02e1
fc92
0008
00ce
0271
01b9
004c
004f
fe4a
fdf7
fee7
fd62
031d
02fb
0299
fc3a
00ef
00ae
fe22
fedd
fe88
01d8
0305
fa11
03f1
ff4a
feda
ff24
0091
02ce
ff78
0177
0224
0235
001b
fd8f
0252
feea
0154
04d4
fea0
01b4
fdf9
03c1
fefb
010d
01fc
042e
0170
0140
ffbe
01c9
fe9e
0469
00fc
ffe0
00dc
00c4
fcc9
fe90
fff6
feb2
0111
ff88
01e0
ff6b
fb74
fe66
01f9
fdd4
026f
002a
0080
0447
0329
01d7
0029
0262
fdf3
00f0
fc87
ff48
0160
00dd
fb09
010f
fdfa
0238
0035
ffc9
04a4
fe4c
fdc1
00a5
00dc
fdc6
02ec
00ff
fd98
0564
fdff
0240
00f1
00e9
ffde
fb64
fd9a
fde7
fefd
fed7
fdfa
02d7
fd33
fd5d
00c2
0166
0242
fd20
0037
fbc8
0055
fb7a
fd7c
0002
fd8c
fef8
01a2
fed5
031d
ffd7
00a5
0056
ffe4
015e
ffe0
ff4d
fc7a
00d0
fd9b
fc02
0141
0187
0020
03a1
02d1
ffd1
febc
013d
fe00
040f
fedd
fd13
00a7
00c2
01f7
feba
0229
fe13
0024
ffb1
ff0c
ff63
feed
01df
fffc
ff3d
0072
fd8f
011b
fbd8
0219
00a6
ff23
0099
0086
fd22
fe20
00a4
01d3
0078
001f
00cb
0001
ff2b
028e
00b1
0191
0084
ff7a
fe86
021f
02a4
02f2
00fe
fe80
01e1
01a4
01d1
0007
01cb
fd67
fe11
0138
fb73
0129
009c
0138
00e6
fe14
fe14
0300
ffbe
fc72
fdb9
fe17
fffc
0027
fef5
0234
038e
ffd4
0210
0353
0038
fc0c
0214
feef
018b
00a1
feff
ff6b
ff1c
01f8
fdf3
fefa
febf
0236
0225
feda
ff8a
fe4c
0167
00ee
fe35
fe02
fdcb
0268
0195
fe26
038b
011a
0060
fe69
00fe
02fb
fdff
fe29
0153
ff44
fdce
0233
fd26
0146
ff5d
ff43
ff1e
fdcc
ffc2
0218
ff59
0041
0035
00fa
0199
ff85
fc65
013d
ff69
fecd
0106
02bf
fdfb
fe7b
009a
fe22
0115
0213
ff51
fb64
020e
ff5e
030d
fcce
0051
fd7f
ffb2
fed8
fecb
01ad
ffdf
020a
01c2
ff1d
fc6d
01d4
fe12
fe84
ff04
0274
fdab
fe6f
faf0
ff27
fecf
fcde
fe35
fe22
009d
fec1
0266
fe69
004e
013e
fded
01ec
02ff
fefa
ff15
fbf8
ff3e
00f6
02e6
ff2b
ff76
fed9
007b
00eb
ff6f
0096
ffcc
ff1e
ff49
fdba
fd1f
00d2
0009
003d
fec9
014a
ff2e
fefe
02a9
fecc
0059
0166
00d4
fdab
01c3
ff14
ff87
fef7
025d
0161
0127
fe71
028f
fda6
fe88
00c3
feac
01f6
00ec
028e
00bb
fde5
01f9
0119
ffd4
fdd0
ff4d
011b
00ea
013e
fed8
0200
ff62
008d
013b
0086
ff0a
011c
ff34
ff69
01a5
fd53
ff2d
ffe3
029c
ffba
fe4c
0118
fe83
00f9
fed7
00ba
00de
0258
0350
03e0
012b
0039
fe7b
0189
ffc4
fe51
0094
ffdc
0142
014b
014e
01ee
feaa
010a
01ea
ff64
0217
fd3f
001e
0158
0351
0100
0178
01c0
00af
fd4f
01b5
feff
ff0d
fe0f
fdc6
fed1
00c1
ff52
016c
029c
00ac
049d
fdb7
ffb1
ff2b
ff64
0077
0078
fea4
0078
02ad
0300
0104
000b
ffde
0166
019e
ffd1
0076
0031
fcfe
ff06
021e
fe85
0085
0039
fea1
fdc1
fef3
01dc
00dd
fd30
00ae
ff97
02e0
0221
fd10
fe53
02ac
ff30
025e
0240
0094
03dd
0052
fe7c
fe30
fe6c
fecd
feca
003f
0026
032b
002e
02bf
fe87
fee6
fe26
00d5
fd95
ff09
ff41
00e9
fd3f
0050
fc01
005b
036e
ff27
008f
016f
fe91
04bd
00c9
fd49
fd8e
0025
feb8
0138
fcf7
0015
feda
0079
fff1
00ba
0020
01ef
02d2
02fc
fcc5
ff40
ffcf
fcf3
ff9b
fffc
fe8d
00be
fce2
00d0
01f3
fe60
03c1
0089
0061
fb36
0045
fe5f
01f0
0263
00df
ff97
0137
ff8e
015b
0101
0488
fe24
000e
fdc8
01e5
0179
fd3f
fed5
fd85
ff0e
0363
ff50
fde8
007e
007b
fff3
02fb
fe3b
fca7
ffcc
008c
00f4
ffab
fe1e
00b9
fe6f
fe76
0114
fe45
fdb7
fe47
00bd
0095
0241
ffd9
fde3
0377
fe09
fef1
fe59
ff48
00e4
ffe3
fed3
ffa1
0058
0116
011f
ff85
fc87
ffa6
febc
fea7
008c
0075
fc73
febe
011b
fc69
fe4e
01da
02c4
fdfc
0234
0237
02b9
004b
0018
00dd
011f
001c
01a9
fdcd
fe13
fae1
fda9
004d
feae
ffaf
01f8
003f
010c
01d3
fe78
005c
050b
0178
0458
0238
03de
0112
feeb
ff2d
01b6
0101
fe47
0097
fdc5
002e
ffb9
0258
011c
026c
00fc
fee8
ff23
041c
ff59
003a
ff3c
0217
ffdc
0278
fe5b
01a6
0067
fcb6
000e
02df
fbf2
0327
010f
fcb9
fef5
01dc
0080
0260
fdbc
fe53
0006
ff24
fd92
014f
01c3
fdc9
0206
feb2
fe97
0088
fee3
0234
004c
fabf
0191
026c
fe2f
02ea
02f4
009a
ffed
fd3c
0099
fe8d
03a7
fecd
ff16
0028
ff8c
ff5e
024a
fcd3
0079
fcc5
0186
024c
fed4
fd66
fee3
ffb3
ff4a
fe8e
055a
0181
fe7a
fbf6
0003
fd50
fd26
0460
002b
fcef
01c9
fbba
ff58
fd61
0134
fea5
0239
fe11
fc07
ffbc
0164
0060
ffa9
0282
00ca
fd83
0066
01a8
fbbf
0136
0041
fe23
067e
ffef
0219
000b
02b9
02d7
ff8c
02f7
016d
ffa0
ff2d
fac2
045a
fdb6
0323
fdfd
026d
fe88
01cd
016c
018f
fde4
f9b0
00b2
04d1
fbac
fd37
ff64
02ff
ffdf
fd99
fe66
fe5f
00d0
ff09
05d2
fdd6
ffa0
ffe7
fdb4
033c
ff1e
004e
0151
0011
0083
feec
fee1
0420
fc16
fdaa
fff7
fd9e
00fe
007a
00b7
fe6c
0213
00a4
ff59
fefb
fea1
ff33
03b5
02ac
0520
0193
02a5
ff50
028f
fda2
ffaf
000f
02f5
fd53
fee4
0010
019a
ff8c
fdbd
fe1d
fed5
fe59
0321
ffbd
0070
fb77
0212
ff44
fde3
00d0
013b
fcce
feca
0074
fb82
03c4
0077
fde7
0317
fe15
0095
fee4
ffc0
0183
ff7d
fff3
006b
0163
046a
0272
ffbb
00f3
00a3
fdea
00ef
fe33
000b
ff78
fea4
038a
0455
0306
fd37
026a
fbed
01ee
01b9
ff08
00cc
0352
04e4
fdab
fde7
fd6c
0180
fb94
ffe4
ff56
013e
fd4e
ffc5
0511
ff63
fea6
023a
0115
ff41
fffb
03c9
00bd
0155
fe57
fed1
01c1
fc35
010c
fc18
01b8
fe4a
ffee
fe12
01ed
0448
0100
01cc
fd8f
ff96
fee4
0375
fc04
fda8
fdcb
ffca
fdbf
fece
f6e1
00e4
faf1
ff6c
fb5b
01f8
0151
febc
ffd7
0417
fc11
01d7
fe67
0181
fb6c
fbc5
025d
ffbd
fba9
fb68
09f7
0163
f9e2
f963
fdbc
01c0
ffb9
fd88
0379
fddb
fdd2
0583
0126
ffe7
fecf
ff91
0416
f90b
fe48
f95f
fb20
00c5
ffc4
ff64
f88d
003a
010e
015b
ffd0
fb81
fd5c
fd02
02a2
fd21
0072
f911
00c9
fb22
0478
fcef
0372
fbac
fe0e
0856
ffdd
0230
01de
0067
fee4
fe3d
fc79
fc29
fc17
0012
ff67
02f4
017c
fd03
03b3
0275
02de
fd8e
fecb
0290
fce2
fb71
facd
0469
0059
fb77
febf
ff73
fe05
024f
0222
0072
00cf
ff55
ff39
ff3b
ff79
fe77
0238
02a0
fd5d
fc0c
fd71
043b
ff0f
015c
ff4b
0190
01c1
005c
03b6
017c
007a
01f0
00c1
0121
fd82
00df
ff2d
ff5b
fe0a
0102
01da
0249
01a8
0027
0158
ffce
023a
fe10
fafe
00c3
03a2
fee2
0158
00a2
0293
016f
ffe5
0304
00a7
017d
fe17
0178
fd7f
fdb2
fc6e
fdd1
00d7
03b7
feab
fd75
01db
0241
fde0
ff06
fdbc
febc
ff92
fbdd
fc9e
f984
fd43
fe51
fe7e
ffa1
fef6
0088
fd3e
053a
fe45
031e
01d2
0006
ff06
01a9
fefa
fdd3
01bd
ff99
008e
fd61
fde4
fecf
ff90
01f7
fcca
0213
00b5
feb7
00d7
ff2a
0101
00a9
feb2
ffbb
0177
02a3
fe9a
fd61
ff3f
fe7e
ff68
ff3a
0103
fc24
0254
0115
02ea
015d
014a
0071
fedf
fde7
0021
00dd
02a7
0309
fc19
fe02
0165
faca
01d5
fe8f
fd00
ff62
0103
000e
fbb6
fe5b
0142
ff56
00e8
ff93
0135
01cf
fd5c
ff74
00c0
fd59
02c4
fb18
ffd9
fff3
00cf
ff2f
fff3
02f4
ffcb
fea3
0147
03a8
0325
fd10
0095
0109
ff79
fef9
ffb9
003c
0009
ffa2
0405
fc07
fde5
038b
ff90
fef4
fda1
0392
fd72
fe3d
00be
0171
007d
ff1d
0004
0153
00e1
fe8c
01d0
0392
033c
ff84
01ad
fd58
ff35
fd5e
0315
01dc
ff0b
01ef
01af
02ba
fe63
fe9f
feb9
ffa8
0118
fd1f
ffd7
00cf
027c
0077
feb9
023e
0104
fff5
032e
0141
ff78
ff69
0439
007c
ff5e
ffd3
00a0
fcf5
fe2f
0111
03c7
fe52
f9d2
ffa9
ff75
0183
0017
00fe
04c3
0296
fdf0
003f
fd19
00bd
fe2a
fbfe
fd86
0070
0095
0024
00a8
ff38
fa92
0198
fddc
0055
fe5b
fdd3
0089
01d3
0238
02d1
fc2b
008c
fce6
01d4
0096
fbf6
029c
01a8
fe90
fefb
fd5e
0273
fed7
00f0
003c
01d6
ff0d
0117
0330
ff9a
0161
019f
